unsigned char weather_model_tflite[] = {
  0x1c, 0x00, 0x00, 0x00, 0x54, 0x46, 0x4c, 0x33, 0x14, 0x00, 0x20, 0x00,
  0x1c, 0x00, 0x18, 0x00, 0x14, 0x00, 0x10, 0x00, 0x0c, 0x00, 0x00, 0x00,
  0x08, 0x00, 0x04, 0x00, 0x14, 0x00, 0x00, 0x00, 0x1c, 0x00, 0x00, 0x00,
  0x98, 0x00, 0x00, 0x00, 0xf0, 0x00, 0x00, 0x00, 0xd0, 0x06, 0x00, 0x00,
  0xe0, 0x06, 0x00, 0x00, 0x94, 0x0c, 0x00, 0x00, 0x03, 0x00, 0x00, 0x00,
  0x01, 0x00, 0x00, 0x00, 0x10, 0x00, 0x00, 0x00, 0x00, 0x00, 0x0a, 0x00,
  0x10, 0x00, 0x0c, 0x00, 0x08, 0x00, 0x04, 0x00, 0x0a, 0x00, 0x00, 0x00,
  0x0c, 0x00, 0x00, 0x00, 0x1c, 0x00, 0x00, 0x00, 0x3c, 0x00, 0x00, 0x00,
  0x0f, 0x00, 0x00, 0x00, 0x73, 0x65, 0x72, 0x76, 0x69, 0x6e, 0x67, 0x5f,
  0x64, 0x65, 0x66, 0x61, 0x75, 0x6c, 0x74, 0x00, 0x01, 0x00, 0x00, 0x00,
  0x04, 0x00, 0x00, 0x00, 0x90, 0xff, 0xff, 0xff, 0x0a, 0x00, 0x00, 0x00,
  0x04, 0x00, 0x00, 0x00, 0x08, 0x00, 0x00, 0x00, 0x6f, 0x75, 0x74, 0x70,
  0x75, 0x74, 0x5f, 0x30, 0x00, 0x00, 0x00, 0x00, 0x01, 0x00, 0x00, 0x00,
  0x04, 0x00, 0x00, 0x00, 0x16, 0xf9, 0xff, 0xff, 0x04, 0x00, 0x00, 0x00,
  0x0c, 0x00, 0x00, 0x00, 0x6b, 0x65, 0x72, 0x61, 0x73, 0x5f, 0x74, 0x65,
  0x6e, 0x73, 0x6f, 0x72, 0x00, 0x00, 0x00, 0x00, 0x02, 0x00, 0x00, 0x00,
  0x34, 0x00, 0x00, 0x00, 0x04, 0x00, 0x00, 0x00, 0xdc, 0xff, 0xff, 0xff,
  0x0d, 0x00, 0x00, 0x00, 0x04, 0x00, 0x00, 0x00, 0x13, 0x00, 0x00, 0x00,
  0x43, 0x4f, 0x4e, 0x56, 0x45, 0x52, 0x53, 0x49, 0x4f, 0x4e, 0x5f, 0x4d,
  0x45, 0x54, 0x41, 0x44, 0x41, 0x54, 0x41, 0x00, 0x08, 0x00, 0x0c, 0x00,
  0x08, 0x00, 0x04, 0x00, 0x08, 0x00, 0x00, 0x00, 0x0c, 0x00, 0x00, 0x00,
  0x04, 0x00, 0x00, 0x00, 0x13, 0x00, 0x00, 0x00, 0x6d, 0x69, 0x6e, 0x5f,
  0x72, 0x75, 0x6e, 0x74, 0x69, 0x6d, 0x65, 0x5f, 0x76, 0x65, 0x72, 0x73,
  0x69, 0x6f, 0x6e, 0x00, 0x0e, 0x00, 0x00, 0x00, 0xdc, 0x05, 0x00, 0x00,
  0xd4, 0x05, 0x00, 0x00, 0x04, 0x05, 0x00, 0x00, 0xf4, 0x01, 0x00, 0x00,
  0xd4, 0x01, 0x00, 0x00, 0x94, 0x01, 0x00, 0x00, 0x44, 0x01, 0x00, 0x00,
  0xb4, 0x00, 0x00, 0x00, 0xac, 0x00, 0x00, 0x00, 0xa4, 0x00, 0x00, 0x00,
  0x9c, 0x00, 0x00, 0x00, 0x94, 0x00, 0x00, 0x00, 0x74, 0x00, 0x00, 0x00,
  0x04, 0x00, 0x00, 0x00, 0xca, 0xf9, 0xff, 0xff, 0x04, 0x00, 0x00, 0x00,
  0x60, 0x00, 0x00, 0x00, 0x0c, 0x00, 0x00, 0x00, 0x08, 0x00, 0x0e, 0x00,
  0x08, 0x00, 0x04, 0x00, 0x08, 0x00, 0x00, 0x00, 0x10, 0x00, 0x00, 0x00,
  0x28, 0x00, 0x00, 0x00, 0x00, 0x00, 0x06, 0x00, 0x08, 0x00, 0x04, 0x00,
  0x06, 0x00, 0x00, 0x00, 0x04, 0x00, 0x00, 0x00, 0x01, 0x00, 0x00, 0x00,
  0xea, 0x03, 0x00, 0x00, 0x0c, 0x00, 0x18, 0x00, 0x14, 0x00, 0x10, 0x00,
  0x0c, 0x00, 0x04, 0x00, 0x0c, 0x00, 0x00, 0x00, 0x44, 0x36, 0x8d, 0x86,
  0x58, 0x69, 0x1a, 0x73, 0x02, 0x00, 0x00, 0x00, 0x02, 0x00, 0x00, 0x00,
  0x04, 0x00, 0x00, 0x00, 0x06, 0x00, 0x00, 0x00, 0x32, 0x2e, 0x31, 0x39,
  0x2e, 0x30, 0x00, 0x00, 0x36, 0xfa, 0xff, 0xff, 0x04, 0x00, 0x00, 0x00,
  0x10, 0x00, 0x00, 0x00, 0x31, 0x2e, 0x35, 0x2e, 0x30, 0x00, 0x00, 0x00,
  0x00, 0x00, 0x00, 0x00, 0x00, 0x00, 0x00, 0x00, 0x4c, 0xf5, 0xff, 0xff,
  0x50, 0xf5, 0xff, 0xff, 0x54, 0xf5, 0xff, 0xff, 0x58, 0xf5, 0xff, 0xff,
  0x62, 0xfa, 0xff, 0xff, 0x04, 0x00, 0x00, 0x00, 0x80, 0x00, 0x00, 0x00,
  0x52, 0x3e, 0x44, 0xbf, 0x1a, 0x0e, 0xb2, 0xbd, 0xa6, 0x5f, 0xd1, 0x3e,
  0x71, 0x9f, 0x0e, 0xbf, 0xab, 0x27, 0x5f, 0x3f, 0x7a, 0xf8, 0xc2, 0xbe,
  0xaf, 0x39, 0x22, 0xbf, 0x5c, 0x1c, 0x0e, 0x3e, 0xf0, 0xe5, 0xf3, 0xbd,
  0xd4, 0x4e, 0xf8, 0xbe, 0xd9, 0x19, 0x8c, 0x3e, 0x95, 0x08, 0x02, 0x3f,
  0xdd, 0x70, 0xd7, 0x3e, 0xcf, 0x44, 0x56, 0xbe, 0xac, 0x8f, 0x46, 0x3e,
  0xb0, 0x37, 0x39, 0xbf, 0x9a, 0xb7, 0x43, 0x3f, 0xc0, 0x84, 0x99, 0xbd,
  0xe0, 0x67, 0x20, 0xbf, 0x72, 0xc3, 0x2f, 0x3f, 0x45, 0x3e, 0x2c, 0xbf,
  0x11, 0xfc, 0x4f, 0x3f, 0x60, 0x7b, 0x46, 0x3e, 0x61, 0x28, 0x33, 0x3f,
  0x3e, 0x2c, 0xfc, 0x3e, 0x32, 0x7e, 0x32, 0x3f, 0xb3, 0x5e, 0x56, 0xbf,
  0x43, 0xff, 0xaa, 0x3e, 0xc2, 0xef, 0x57, 0xbf, 0xe7, 0x50, 0xff, 0xbe,
  0x8d, 0x3a, 0x13, 0x3f, 0xb8, 0xe8, 0x5f, 0xbe, 0xee, 0xfa, 0xff, 0xff,
  0x04, 0x00, 0x00, 0x00, 0x40, 0x00, 0x00, 0x00, 0x4e, 0x1d, 0xe4, 0xbd,
  0x50, 0xcf, 0x4f, 0x3e, 0xf1, 0x9a, 0x88, 0x3e, 0xb1, 0xcf, 0x87, 0xbe,
  0xf6, 0x05, 0x03, 0x3f, 0xe8, 0x48, 0x15, 0x3e, 0x49, 0x5f, 0xdf, 0xbc,
  0xc4, 0x3d, 0x69, 0xbe, 0x69, 0xc6, 0x6e, 0xbe, 0xf3, 0xd7, 0x1e, 0x3e,
  0x77, 0x5f, 0x7d, 0x3e, 0x23, 0x5d, 0xcb, 0x3e, 0x62, 0xfb, 0x11, 0x3f,
  0xea, 0xeb, 0x0e, 0xbe, 0x92, 0xab, 0xb1, 0x3e, 0x93, 0xee, 0x8d, 0xbe,
  0x3a, 0xfb, 0xff, 0xff, 0x04, 0x00, 0x00, 0x00, 0x30, 0x00, 0x00, 0x00,
  0xc9, 0xf8, 0x4c, 0x3e, 0x65, 0xc4, 0xc3, 0xbd, 0x56, 0x14, 0x74, 0xbe,
  0x1a, 0xf9, 0x81, 0x3e, 0x20, 0xe2, 0x97, 0xbd, 0x0e, 0xb7, 0x85, 0xbe,
  0xb7, 0xa9, 0x4d, 0xbe, 0x26, 0x7c, 0xaf, 0x3d, 0xe1, 0x55, 0xde, 0x3e,
  0x42, 0xec, 0x88, 0x3d, 0xd1, 0xde, 0xa1, 0x3e, 0xf4, 0x6b, 0xf1, 0x3e,
  0x76, 0xfb, 0xff, 0xff, 0x04, 0x00, 0x00, 0x00, 0x10, 0x00, 0x00, 0x00,
  0x0f, 0x86, 0x9c, 0xbe, 0x68, 0xab, 0x79, 0xbe, 0xcd, 0x22, 0xd0, 0x3d,
  0xb2, 0x55, 0xb8, 0x3e, 0x92, 0xfb, 0xff, 0xff, 0x04, 0x00, 0x00, 0x00,
  0x00, 0x03, 0x00, 0x00, 0x58, 0x92, 0xd1, 0x3e, 0x36, 0xfc, 0xe5, 0x3e,
  0x03, 0xcf, 0xd6, 0x3e, 0x6e, 0x8b, 0xac, 0xbe, 0xce, 0xcc, 0xb9, 0x3e,
  0x62, 0xad, 0x8f, 0x3e, 0x7b, 0x29, 0xd1, 0x3e, 0xf9, 0x1f, 0x22, 0x3f,
  0xbf, 0xb8, 0xf3, 0x3e, 0xe6, 0xc3, 0xfb, 0xbe, 0x08, 0x09, 0xb1, 0xbe,
  0x73, 0xf1, 0x60, 0x3e, 0x85, 0x11, 0x4c, 0x3d, 0x16, 0x45, 0x01, 0xbf,
  0x0d, 0x25, 0x83, 0x3e, 0x57, 0x1c, 0xc5, 0xbd, 0x54, 0x9d, 0x46, 0xbd,
  0x11, 0x96, 0x02, 0x3f, 0x7c, 0xae, 0x44, 0x3d, 0x84, 0x1f, 0xa3, 0xbd,
  0xe4, 0x90, 0x99, 0xbe, 0xdd, 0x97, 0x4b, 0x3b, 0xde, 0xfd, 0xcf, 0x39,
  0xd9, 0x8f, 0xf4, 0x3e, 0x19, 0xbb, 0x88, 0x3e, 0x30, 0x6c, 0xc9, 0xbd,
  0xb2, 0x60, 0xac, 0xbe, 0xe0, 0xa1, 0x56, 0xbf, 0x23, 0x3e, 0xe3, 0xbe,
  0xd0, 0xe8, 0x30, 0xbd, 0xe5, 0x50, 0x49, 0xbe, 0x33, 0x81, 0xc8, 0x3d,
  0xdf, 0x00, 0x29, 0x3f, 0x66, 0x48, 0x01, 0xbf, 0x66, 0x31, 0x55, 0xbe,
  0x70, 0x69, 0xa3, 0x3e, 0x9b, 0x0b, 0xb7, 0xbe, 0xf9, 0x7f, 0xfe, 0xbe,
  0x75, 0x2b, 0x2b, 0xbe, 0xea, 0xea, 0xb6, 0x3e, 0xc4, 0x74, 0x90, 0x3e,
  0xc8, 0xe5, 0x6b, 0x3e, 0x90, 0x9b, 0xf2, 0x3e, 0x36, 0xec, 0xef, 0xbe,
  0xee, 0x38, 0x05, 0x3d, 0x34, 0x5f, 0xa7, 0x3e, 0x32, 0xbc, 0x3c, 0x3f,
  0x8a, 0x83, 0xf9, 0x3b, 0xae, 0x04, 0x82, 0xbe, 0x71, 0xd0, 0x9f, 0xbe,
  0x6a, 0xe4, 0x14, 0xbd, 0xdd, 0xe1, 0xbd, 0xbd, 0x9e, 0x21, 0xb4, 0x3e,
  0xc4, 0xa7, 0x88, 0x3d, 0x41, 0x56, 0x8e, 0xbe, 0x67, 0xec, 0xf0, 0xbd,
  0xda, 0x25, 0x16, 0xbe, 0x55, 0x4d, 0x7c, 0x3e, 0x80, 0xbe, 0xec, 0x3e,
  0x55, 0x71, 0xcf, 0x3e, 0xe9, 0x02, 0x49, 0x3f, 0xb7, 0x1b, 0x89, 0xbc,
  0x53, 0xb5, 0x44, 0xbe, 0x3b, 0xb0, 0xae, 0x3e, 0x86, 0xed, 0x8c, 0xbe,
  0xd7, 0x96, 0x9d, 0x3e, 0xee, 0x89, 0x27, 0x3f, 0x7f, 0x54, 0xd6, 0xbe,
  0x91, 0xbb, 0x15, 0xbe, 0x47, 0x19, 0xe1, 0xbd, 0xc0, 0x93, 0x18, 0x3f,
  0x55, 0x54, 0xf3, 0xbd, 0x5e, 0xbb, 0xcf, 0x3e, 0x40, 0x52, 0xa5, 0x3c,
  0xe8, 0x1d, 0xc7, 0x3e, 0xff, 0x48, 0x80, 0xbf, 0x79, 0xdf, 0x57, 0xbf,
  0x84, 0x55, 0x9a, 0xbe, 0x19, 0x0c, 0xc2, 0xbe, 0x9b, 0x34, 0xd2, 0x3e,
  0x20, 0xdd, 0x0b, 0x3f, 0x1a, 0x1b, 0x8c, 0x3e, 0x9f, 0xad, 0x9c, 0x3e,
  0x12, 0x6f, 0xb0, 0x3e, 0xa5, 0xf7, 0x04, 0x3f, 0xe0, 0xa2, 0xe3, 0x3d,
  0x3a, 0x78, 0xf8, 0x3d, 0x00, 0x1a, 0x9b, 0x3e, 0x1f, 0xd8, 0x34, 0x3e,
  0xf6, 0xde, 0x3f, 0x3e, 0x8d, 0x66, 0xc5, 0x3e, 0x01, 0x22, 0x09, 0xbe,
  0x4f, 0xa1, 0x9d, 0xbe, 0x4f, 0xa8, 0x01, 0x3e, 0xab, 0x40, 0x0c, 0xbe,
  0x3c, 0x32, 0xca, 0x3d, 0xdf, 0x15, 0x1f, 0x3e, 0xe5, 0x13, 0x4b, 0x3e,
  0x87, 0xe0, 0x4e, 0x3e, 0x8a, 0x63, 0xd2, 0x3e, 0x44, 0x45, 0x91, 0xbe,
  0x80, 0x91, 0x25, 0x3e, 0x66, 0xc1, 0x55, 0x3f, 0xa9, 0xde, 0x00, 0x3f,
  0x16, 0x2f, 0x53, 0x3f, 0x98, 0x7a, 0x52, 0x3e, 0x2f, 0xcd, 0x80, 0x3e,
  0xc8, 0x20, 0x20, 0x3e, 0x65, 0x28, 0x32, 0xbf, 0x40, 0x36, 0x83, 0x3e,
  0x81, 0x4d, 0xe4, 0xbd, 0xa9, 0x23, 0xef, 0x3e, 0x01, 0x14, 0xc5, 0x3e,
  0xd6, 0xda, 0x03, 0xbe, 0x4f, 0xd7, 0x45, 0x3e, 0x41, 0x08, 0x42, 0xbe,
  0x5e, 0x60, 0xbf, 0xbe, 0x7a, 0x70, 0x26, 0x3e, 0x51, 0xbe, 0x0a, 0x3e,
  0xd8, 0x36, 0xe1, 0xbe, 0xb3, 0x9e, 0xb2, 0x3d, 0x2d, 0xb0, 0xc0, 0x3e,
  0x86, 0x1c, 0xfc, 0x3e, 0xb9, 0xbc, 0x83, 0xbc, 0x75, 0xe5, 0xd5, 0x3e,
  0x10, 0xb6, 0x07, 0x3f, 0x67, 0xfc, 0xad, 0x3e, 0x5d, 0x31, 0xa4, 0x3e,
  0x0c, 0xe4, 0x7e, 0xbe, 0x24, 0x81, 0x4f, 0x3f, 0x10, 0xc6, 0xb3, 0x3e,
  0xb6, 0xf6, 0x8f, 0x3e, 0xa8, 0x6a, 0xda, 0x3e, 0xea, 0x03, 0xf7, 0xbe,
  0xdd, 0x62, 0xa9, 0x3e, 0x1c, 0x7b, 0x5b, 0x3e, 0x39, 0x9e, 0x05, 0x3f,
  0xc4, 0x17, 0x3f, 0xbf, 0x77, 0x98, 0x0e, 0x3e, 0x78, 0xee, 0x25, 0xbf,
  0x47, 0x35, 0x3b, 0x3f, 0x6a, 0xda, 0x1d, 0xbf, 0x0e, 0xdc, 0x31, 0x3f,
  0x81, 0x50, 0x17, 0x3e, 0xee, 0x69, 0xac, 0x3e, 0x37, 0xfd, 0xe1, 0xbe,
  0x9a, 0x11, 0x57, 0xbe, 0x2e, 0xd2, 0x98, 0xba, 0x93, 0x46, 0x18, 0x3e,
  0x2e, 0x8c, 0xea, 0xbc, 0x05, 0x09, 0x91, 0x3d, 0x6b, 0xa2, 0xdf, 0xbd,
  0x32, 0xa1, 0x3d, 0x3e, 0xe7, 0xb9, 0xc2, 0x3e, 0xca, 0x41, 0x24, 0x3f,
  0xf7, 0x5c, 0xb2, 0x3e, 0xfa, 0x75, 0xe4, 0x3e, 0xd2, 0x16, 0xd0, 0x3d,
  0xf1, 0x4c, 0x9e, 0x3d, 0xfb, 0xa6, 0xd1, 0x3e, 0xa5, 0xe6, 0x96, 0xbe,
  0x50, 0x6b, 0xac, 0x3d, 0x54, 0x68, 0x9c, 0x3e, 0x3d, 0x3c, 0x15, 0xbf,
  0x0d, 0x82, 0xb2, 0x3e, 0xe9, 0xa8, 0x19, 0x3f, 0x7e, 0xca, 0x4c, 0x3d,
  0x96, 0xa5, 0xd0, 0xbe, 0xb1, 0xb9, 0x85, 0xbe, 0x00, 0x1f, 0x25, 0x3c,
  0x8d, 0xc7, 0x94, 0x3e, 0x4a, 0x59, 0xab, 0x3e, 0xd7, 0xfe, 0xc4, 0x3e,
  0xbf, 0x6b, 0xb0, 0xbe, 0xe3, 0x53, 0x00, 0xbf, 0x7d, 0x3c, 0x1b, 0xbf,
  0x00, 0x3e, 0xe0, 0x3e, 0x3c, 0xa5, 0x69, 0x3e, 0x9e, 0x87, 0xd0, 0x3e,
  0x53, 0x80, 0xa0, 0x3e, 0xb4, 0xde, 0x21, 0x3f, 0xa1, 0x0c, 0x00, 0xbf,
  0xf2, 0xdb, 0xea, 0x3e, 0x35, 0x89, 0x09, 0xbe, 0xf1, 0x75, 0x7c, 0xbe,
  0x39, 0x52, 0xfc, 0x3d, 0x35, 0x67, 0x79, 0xbe, 0x94, 0x4c, 0xb5, 0x3b,
  0xf2, 0xc8, 0x26, 0xbe, 0x65, 0xa6, 0x52, 0x3d, 0x55, 0x14, 0x85, 0x3f,
  0x01, 0x4f, 0x06, 0xbf, 0x9e, 0xfe, 0xff, 0xff, 0x04, 0x00, 0x00, 0x00,
  0xc0, 0x00, 0x00, 0x00, 0xf4, 0x80, 0xb9, 0x3c, 0xe0, 0xfe, 0xb2, 0xbd,
  0x31, 0xab, 0x01, 0x3f, 0xb1, 0xe2, 0x78, 0x3e, 0x76, 0x47, 0xe6, 0xbe,
  0x2a, 0xdc, 0x6d, 0xbe, 0xc0, 0x06, 0xfe, 0xbd, 0xbd, 0x50, 0x11, 0x3f,
  0x5a, 0xba, 0x0b, 0x3e, 0xea, 0x29, 0x5e, 0x3e, 0xaf, 0x55, 0x80, 0xbf,
  0x53, 0xaf, 0xec, 0x3d, 0x24, 0x19, 0xa3, 0x3e, 0x1e, 0x70, 0xcb, 0x3d,
  0xc4, 0x82, 0x3f, 0x3e, 0x78, 0xf0, 0x3c, 0xbf, 0x34, 0x0e, 0x57, 0x3f,
  0x17, 0xe7, 0xf3, 0x3d, 0xb1, 0xe6, 0x80, 0x3f, 0x70, 0x60, 0x08, 0xbf,
  0x38, 0xd9, 0x0f, 0x3f, 0xcd, 0xdc, 0x4a, 0xbf, 0xf5, 0xa2, 0x07, 0xbf,
  0xa3, 0xfe, 0x97, 0x3b, 0xee, 0x79, 0x4b, 0xbf, 0x01, 0x70, 0xbf, 0x3e,
  0xb1, 0xad, 0x7f, 0xbf, 0x11, 0x0d, 0x3f, 0x3f, 0x42, 0x96, 0xdc, 0xbe,
  0x32, 0xbf, 0x2a, 0xbf, 0x44, 0xd1, 0x84, 0xbf, 0x05, 0x45, 0xbe, 0x3e,
  0x3f, 0x96, 0x70, 0xbe, 0xa9, 0xa6, 0xa3, 0x3e, 0x5d, 0x85, 0x5b, 0x3f,
  0x95, 0x4a, 0x84, 0xbe, 0xc4, 0xcd, 0x8e, 0x3e, 0x69, 0xa9, 0x54, 0xbf,
  0x2b, 0x76, 0x21, 0xbf, 0x1e, 0x7d, 0x74, 0xbe, 0xe1, 0x5a, 0xd5, 0xbd,
  0xbf, 0xf1, 0x80, 0xbe, 0x99, 0xbc, 0x62, 0xbf, 0x30, 0x15, 0xa5, 0xbe,
  0x44, 0x8d, 0x46, 0x3f, 0x5d, 0x5d, 0x3e, 0xbf, 0xa4, 0xf6, 0xd2, 0x3e,
  0x59, 0x5f, 0x8a, 0x3f, 0x64, 0xfa, 0xff, 0xff, 0x68, 0xfa, 0xff, 0xff,
  0x0f, 0x00, 0x00, 0x00, 0x4d, 0x4c, 0x49, 0x52, 0x20, 0x43, 0x6f, 0x6e,
  0x76, 0x65, 0x72, 0x74, 0x65, 0x64, 0x2e, 0x00, 0x01, 0x00, 0x00, 0x00,
  0x14, 0x00, 0x00, 0x00, 0x00, 0x00, 0x0e, 0x00, 0x18, 0x00, 0x14, 0x00,
  0x10, 0x00, 0x0c, 0x00, 0x08, 0x00, 0x04, 0x00, 0x0e, 0x00, 0x00, 0x00,
  0x14, 0x00, 0x00, 0x00, 0x1c, 0x00, 0x00, 0x00, 0x24, 0x01, 0x00, 0x00,
  0x28, 0x01, 0x00, 0x00, 0x2c, 0x01, 0x00, 0x00, 0x04, 0x00, 0x00, 0x00,
  0x6d, 0x61, 0x69, 0x6e, 0x00, 0x00, 0x00, 0x00, 0x04, 0x00, 0x00, 0x00,
  0xcc, 0x00, 0x00, 0x00, 0x84, 0x00, 0x00, 0x00, 0x50, 0x00, 0x00, 0x00,
  0x14, 0x00, 0x00, 0x00, 0x00, 0x00, 0x0e, 0x00, 0x1a, 0x00, 0x14, 0x00,
  0x10, 0x00, 0x0c, 0x00, 0x0b, 0x00, 0x04, 0x00, 0x0e, 0x00, 0x00, 0x00,
  0x1c, 0x00, 0x00, 0x00, 0x00, 0x00, 0x00, 0x09, 0x1c, 0x00, 0x00, 0x00,
  0x20, 0x00, 0x00, 0x00, 0x01, 0x00, 0x00, 0x00, 0x00, 0x00, 0x06, 0x00,
  0x08, 0x00, 0x04, 0x00, 0x06, 0x00, 0x00, 0x00, 0x00, 0x00, 0x80, 0x3f,
  0x01, 0x00, 0x00, 0x00, 0x0a, 0x00, 0x00, 0x00, 0x01, 0x00, 0x00, 0x00,
  0x09, 0x00, 0x00, 0x00, 0x9a, 0xff, 0xff, 0xff, 0x10, 0x00, 0x00, 0x00,
  0x00, 0x00, 0x00, 0x08, 0x0c, 0x00, 0x00, 0x00, 0x10, 0x00, 0x00, 0x00,
  0x2c, 0xfb, 0xff, 0xff, 0x01, 0x00, 0x00, 0x00, 0x09, 0x00, 0x00, 0x00,
  0x03, 0x00, 0x00, 0x00, 0x08, 0x00, 0x00, 0x00, 0x01, 0x00, 0x00, 0x00,
  0x03, 0x00, 0x00, 0x00, 0xca, 0xff, 0xff, 0xff, 0x10, 0x00, 0x00, 0x00,
  0x00, 0x00, 0x00, 0x08, 0x10, 0x00, 0x00, 0x00, 0x14, 0x00, 0x00, 0x00,
  0xba, 0xff, 0xff, 0xff, 0x00, 0x00, 0x00, 0x01, 0x01, 0x00, 0x00, 0x00,
  0x08, 0x00, 0x00, 0x00, 0x03, 0x00, 0x00, 0x00, 0x07, 0x00, 0x00, 0x00,
  0x02, 0x00, 0x00, 0x00, 0x04, 0x00, 0x00, 0x00, 0x00, 0x00, 0x0e, 0x00,
  0x16, 0x00, 0x00, 0x00, 0x10, 0x00, 0x0c, 0x00, 0x0b, 0x00, 0x04, 0x00,
  0x0e, 0x00, 0x00, 0x00, 0x18, 0x00, 0x00, 0x00, 0x00, 0x00, 0x00, 0x08,
  0x18, 0x00, 0x00, 0x00, 0x1c, 0x00, 0x00, 0x00, 0x00, 0x00, 0x06, 0x00,
  0x08, 0x00, 0x07, 0x00, 0x06, 0x00, 0x00, 0x00, 0x00, 0x00, 0x00, 0x01,
  0x01, 0x00, 0x00, 0x00, 0x07, 0x00, 0x00, 0x00, 0x03, 0x00, 0x00, 0x00,
  0x00, 0x00, 0x00, 0x00, 0x06, 0x00, 0x00, 0x00, 0x05, 0x00, 0x00, 0x00,
  0x01, 0x00, 0x00, 0x00, 0x0a, 0x00, 0x00, 0x00, 0x01, 0x00, 0x00, 0x00,
  0x00, 0x00, 0x00, 0x00, 0x0b, 0x00, 0x00, 0x00, 0xfc, 0x03, 0x00, 0x00,
  0xa4, 0x03, 0x00, 0x00, 0x4c, 0x03, 0x00, 0x00, 0x10, 0x03, 0x00, 0x00,
  0xb4, 0x02, 0x00, 0x00, 0x5c, 0x02, 0x00, 0x00, 0x10, 0x02, 0x00, 0x00,
  0x7c, 0x01, 0x00, 0x00, 0xe0, 0x00, 0x00, 0x00, 0x60, 0x00, 0x00, 0x00,
  0x04, 0x00, 0x00, 0x00, 0x46, 0xfc, 0xff, 0xff, 0x00, 0x00, 0x00, 0x01,
  0x14, 0x00, 0x00, 0x00, 0x1c, 0x00, 0x00, 0x00, 0x1c, 0x00, 0x00, 0x00,
  0x0b, 0x00, 0x00, 0x00, 0x34, 0x00, 0x00, 0x00, 0x02, 0x00, 0x00, 0x00,
  0xff, 0xff, 0xff, 0xff, 0x04, 0x00, 0x00, 0x00, 0x30, 0xfc, 0xff, 0xff,
  0x1b, 0x00, 0x00, 0x00, 0x53, 0x74, 0x61, 0x74, 0x65, 0x66, 0x75, 0x6c,
  0x50, 0x61, 0x72, 0x74, 0x69, 0x74, 0x69, 0x6f, 0x6e, 0x65, 0x64, 0x43,
  0x61, 0x6c, 0x6c, 0x5f, 0x31, 0x3a, 0x30, 0x00, 0x02, 0x00, 0x00, 0x00,
  0x01, 0x00, 0x00, 0x00, 0x04, 0x00, 0x00, 0x00, 0x9e, 0xfc, 0xff, 0xff,
  0x00, 0x00, 0x00, 0x01, 0x14, 0x00, 0x00, 0x00, 0x1c, 0x00, 0x00, 0x00,
  0x1c, 0x00, 0x00, 0x00, 0x0a, 0x00, 0x00, 0x00, 0x58, 0x00, 0x00, 0x00,
  0x02, 0x00, 0x00, 0x00, 0xff, 0xff, 0xff, 0xff, 0x04, 0x00, 0x00, 0x00,
  0x88, 0xfc, 0xff, 0xff, 0x3c, 0x00, 0x00, 0x00, 0x73, 0x65, 0x71, 0x75,
  0x65, 0x6e, 0x74, 0x69, 0x61, 0x6c, 0x5f, 0x31, 0x2f, 0x64, 0x65, 0x6e,
  0x73, 0x65, 0x5f, 0x32, 0x5f, 0x31, 0x2f, 0x4d, 0x61, 0x74, 0x4d, 0x75,
  0x6c, 0x3b, 0x73, 0x65, 0x71, 0x75, 0x65, 0x6e, 0x74, 0x69, 0x61, 0x6c,
  0x5f, 0x31, 0x2f, 0x64, 0x65, 0x6e, 0x73, 0x65, 0x5f, 0x32, 0x5f, 0x31,
  0x2f, 0x42, 0x69, 0x61, 0x73, 0x41, 0x64, 0x64, 0x00, 0x00, 0x00, 0x00,
  0x02, 0x00, 0x00, 0x00, 0x01, 0x00, 0x00, 0x00, 0x04, 0x00, 0x00, 0x00,
  0x1a, 0xfd, 0xff, 0xff, 0x00, 0x00, 0x00, 0x01, 0x14, 0x00, 0x00, 0x00,
  0x1c, 0x00, 0x00, 0x00, 0x1c, 0x00, 0x00, 0x00, 0x09, 0x00, 0x00, 0x00,
  0x74, 0x00, 0x00, 0x00, 0x02, 0x00, 0x00, 0x00, 0xff, 0xff, 0xff, 0xff,
  0x0c, 0x00, 0x00, 0x00, 0x04, 0xfd, 0xff, 0xff, 0x58, 0x00, 0x00, 0x00,
  0x73, 0x65, 0x71, 0x75, 0x65, 0x6e, 0x74, 0x69, 0x61, 0x6c, 0x5f, 0x31,
  0x2f, 0x64, 0x65, 0x6e, 0x73, 0x65, 0x5f, 0x31, 0x5f, 0x32, 0x2f, 0x4d,
  0x61, 0x74, 0x4d, 0x75, 0x6c, 0x3b, 0x73, 0x65, 0x71, 0x75, 0x65, 0x6e,
  0x74, 0x69, 0x61, 0x6c, 0x5f, 0x31, 0x2f, 0x64, 0x65, 0x6e, 0x73, 0x65,
  0x5f, 0x31, 0x5f, 0x32, 0x2f, 0x52, 0x65, 0x6c, 0x75, 0x3b, 0x73, 0x65,
  0x71, 0x75, 0x65, 0x6e, 0x74, 0x69, 0x61, 0x6c, 0x5f, 0x31, 0x2f, 0x64,
  0x65, 0x6e, 0x73, 0x65, 0x5f, 0x31, 0x5f, 0x32, 0x2f, 0x42, 0x69, 0x61,
  0x73, 0x41, 0x64, 0x64, 0x00, 0x00, 0x00, 0x00, 0x02, 0x00, 0x00, 0x00,
  0x01, 0x00, 0x00, 0x00, 0x0c, 0x00, 0x00, 0x00, 0xb2, 0xfd, 0xff, 0xff,
  0x00, 0x00, 0x00, 0x01, 0x14, 0x00, 0x00, 0x00, 0x1c, 0x00, 0x00, 0x00,
  0x1c, 0x00, 0x00, 0x00, 0x08, 0x00, 0x00, 0x00, 0x6c, 0x00, 0x00, 0x00,
  0x02, 0x00, 0x00, 0x00, 0xff, 0xff, 0xff, 0xff, 0x10, 0x00, 0x00, 0x00,
  0x9c, 0xfd, 0xff, 0xff, 0x52, 0x00, 0x00, 0x00, 0x73, 0x65, 0x71, 0x75,
  0x65, 0x6e, 0x74, 0x69, 0x61, 0x6c, 0x5f, 0x31, 0x2f, 0x64, 0x65, 0x6e,
  0x73, 0x65, 0x5f, 0x31, 0x2f, 0x4d, 0x61, 0x74, 0x4d, 0x75, 0x6c, 0x3b,
  0x73, 0x65, 0x71, 0x75, 0x65, 0x6e, 0x74, 0x69, 0x61, 0x6c, 0x5f, 0x31,
  0x2f, 0x64, 0x65, 0x6e, 0x73, 0x65, 0x5f, 0x31, 0x2f, 0x52, 0x65, 0x6c,
  0x75, 0x3b, 0x73, 0x65, 0x71, 0x75, 0x65, 0x6e, 0x74, 0x69, 0x61, 0x6c,
  0x5f, 0x31, 0x2f, 0x64, 0x65, 0x6e, 0x73, 0x65, 0x5f, 0x31, 0x2f, 0x42,
  0x69, 0x61, 0x73, 0x41, 0x64, 0x64, 0x00, 0x00, 0x02, 0x00, 0x00, 0x00,
  0x01, 0x00, 0x00, 0x00, 0x10, 0x00, 0x00, 0x00, 0x96, 0xfe, 0xff, 0xff,
  0x00, 0x00, 0x00, 0x01, 0x10, 0x00, 0x00, 0x00, 0x10, 0x00, 0x00, 0x00,
  0x07, 0x00, 0x00, 0x00, 0x28, 0x00, 0x00, 0x00, 0x1c, 0xfe, 0xff, 0xff,
  0x1b, 0x00, 0x00, 0x00, 0x73, 0x65, 0x71, 0x75, 0x65, 0x6e, 0x74, 0x69,
  0x61, 0x6c, 0x5f, 0x31, 0x2f, 0x64, 0x65, 0x6e, 0x73, 0x65, 0x5f, 0x31,
  0x2f, 0x4d, 0x61, 0x74, 0x4d, 0x75, 0x6c, 0x00, 0x02, 0x00, 0x00, 0x00,
  0x10, 0x00, 0x00, 0x00, 0x02, 0x00, 0x00, 0x00, 0xde, 0xfe, 0xff, 0xff,
  0x00, 0x00, 0x00, 0x01, 0x10, 0x00, 0x00, 0x00, 0x10, 0x00, 0x00, 0x00,
  0x06, 0x00, 0x00, 0x00, 0x38, 0x00, 0x00, 0x00, 0x64, 0xfe, 0xff, 0xff,
  0x2b, 0x00, 0x00, 0x00, 0x73, 0x65, 0x71, 0x75, 0x65, 0x6e, 0x74, 0x69,
  0x61, 0x6c, 0x5f, 0x31, 0x2f, 0x64, 0x65, 0x6e, 0x73, 0x65, 0x5f, 0x31,
  0x2f, 0x42, 0x69, 0x61, 0x73, 0x41, 0x64, 0x64, 0x2f, 0x52, 0x65, 0x61,
  0x64, 0x56, 0x61, 0x72, 0x69, 0x61, 0x62, 0x6c, 0x65, 0x4f, 0x70, 0x00,
  0x01, 0x00, 0x00, 0x00, 0x10, 0x00, 0x00, 0x00, 0x32, 0xff, 0xff, 0xff,
  0x00, 0x00, 0x00, 0x01, 0x10, 0x00, 0x00, 0x00, 0x10, 0x00, 0x00, 0x00,
  0x05, 0x00, 0x00, 0x00, 0x3c, 0x00, 0x00, 0x00, 0xb8, 0xfe, 0xff, 0xff,
  0x2d, 0x00, 0x00, 0x00, 0x73, 0x65, 0x71, 0x75, 0x65, 0x6e, 0x74, 0x69,
  0x61, 0x6c, 0x5f, 0x31, 0x2f, 0x64, 0x65, 0x6e, 0x73, 0x65, 0x5f, 0x31,
  0x5f, 0x32, 0x2f, 0x42, 0x69, 0x61, 0x73, 0x41, 0x64, 0x64, 0x2f, 0x52,
  0x65, 0x61, 0x64, 0x56, 0x61, 0x72, 0x69, 0x61, 0x62, 0x6c, 0x65, 0x4f,
  0x70, 0x00, 0x00, 0x00, 0x01, 0x00, 0x00, 0x00, 0x0c, 0x00, 0x00, 0x00,
  0x8a, 0xff, 0xff, 0xff, 0x00, 0x00, 0x00, 0x01, 0x10, 0x00, 0x00, 0x00,
  0x10, 0x00, 0x00, 0x00, 0x04, 0x00, 0x00, 0x00, 0x1c, 0x00, 0x00, 0x00,
  0x10, 0xff, 0xff, 0xff, 0x0f, 0x00, 0x00, 0x00, 0x61, 0x72, 0x69, 0x74,
  0x68, 0x2e, 0x63, 0x6f, 0x6e, 0x73, 0x74, 0x61, 0x6e, 0x74, 0x32, 0x00,
  0x01, 0x00, 0x00, 0x00, 0x04, 0x00, 0x00, 0x00, 0xc2, 0xff, 0xff, 0xff,
  0x00, 0x00, 0x00, 0x01, 0x10, 0x00, 0x00, 0x00, 0x10, 0x00, 0x00, 0x00,
  0x03, 0x00, 0x00, 0x00, 0x1c, 0x00, 0x00, 0x00, 0x48, 0xff, 0xff, 0xff,
  0x0f, 0x00, 0x00, 0x00, 0x61, 0x72, 0x69, 0x74, 0x68, 0x2e, 0x63, 0x6f,
  0x6e, 0x73, 0x74, 0x61, 0x6e, 0x74, 0x31, 0x00, 0x02, 0x00, 0x00, 0x00,
  0x0c, 0x00, 0x00, 0x00, 0x10, 0x00, 0x00, 0x00, 0x00, 0x00, 0x16, 0x00,
  0x18, 0x00, 0x14, 0x00, 0x00, 0x00, 0x10, 0x00, 0x0c, 0x00, 0x08, 0x00,
  0x00, 0x00, 0x00, 0x00, 0x00, 0x00, 0x07, 0x00, 0x16, 0x00, 0x00, 0x00,
  0x00, 0x00, 0x00, 0x01, 0x10, 0x00, 0x00, 0x00, 0x10, 0x00, 0x00, 0x00,
  0x02, 0x00, 0x00, 0x00, 0x1c, 0x00, 0x00, 0x00, 0x9c, 0xff, 0xff, 0xff,
  0x0e, 0x00, 0x00, 0x00, 0x61, 0x72, 0x69, 0x74, 0x68, 0x2e, 0x63, 0x6f,
  0x6e, 0x73, 0x74, 0x61, 0x6e, 0x74, 0x00, 0x00, 0x02, 0x00, 0x00, 0x00,
  0x04, 0x00, 0x00, 0x00, 0x0c, 0x00, 0x00, 0x00, 0x00, 0x00, 0x16, 0x00,
  0x1c, 0x00, 0x18, 0x00, 0x00, 0x00, 0x14, 0x00, 0x10, 0x00, 0x0c, 0x00,
  0x00, 0x00, 0x00, 0x00, 0x08, 0x00, 0x07, 0x00, 0x16, 0x00, 0x00, 0x00,
  0x00, 0x00, 0x00, 0x01, 0x14, 0x00, 0x00, 0x00, 0x20, 0x00, 0x00, 0x00,
  0x20, 0x00, 0x00, 0x00, 0x01, 0x00, 0x00, 0x00, 0x3c, 0x00, 0x00, 0x00,
  0x02, 0x00, 0x00, 0x00, 0xff, 0xff, 0xff, 0xff, 0x02, 0x00, 0x00, 0x00,
  0x04, 0x00, 0x04, 0x00, 0x04, 0x00, 0x00, 0x00, 0x1e, 0x00, 0x00, 0x00,
  0x73, 0x65, 0x72, 0x76, 0x69, 0x6e, 0x67, 0x5f, 0x64, 0x65, 0x66, 0x61,
  0x75, 0x6c, 0x74, 0x5f, 0x6b, 0x65, 0x72, 0x61, 0x73, 0x5f, 0x74, 0x65,
  0x6e, 0x73, 0x6f, 0x72, 0x3a, 0x30, 0x00, 0x00, 0x02, 0x00, 0x00, 0x00,
  0x01, 0x00, 0x00, 0x00, 0x02, 0x00, 0x00, 0x00, 0x02, 0x00, 0x00, 0x00,
  0x20, 0x00, 0x00, 0x00, 0x04, 0x00, 0x00, 0x00, 0xf4, 0xff, 0xff, 0xff,
  0x19, 0x00, 0x00, 0x00, 0x00, 0x00, 0x00, 0x19, 0x0c, 0x00, 0x0c, 0x00,
  0x0b, 0x00, 0x00, 0x00, 0x00, 0x00, 0x04, 0x00, 0x0c, 0x00, 0x00, 0x00,
  0x09, 0x00, 0x00, 0x00, 0x00, 0x00, 0x00, 0x09
};
unsigned int weather_model_tflite_len = 3320;
